3b
ee
11
3d
9d
1b
cf
d2
33
ee
1e
30
ad
98
9b
04
46
98
c5
6e
0f
d1
53
21
db
b3
3b
55
1f
15
52
60
9d
fe
00
38
a2
58
df
47
31
96
c4
07
d5
97
ea
7e
2c
0c
93
57
58
6d
3a
32
f1
a9
58
03
c0
9b
61
e4
28
9e
5a
60
9b
e1
1f
d3
de
ad
6b
92
73
84
19
03
ad
09
fe
b8
58
e9
c8
83
58
1a
f9
2a
5e
55
cd
ca
c8
e5
74
ee
c3
6c
08
75
2e
fa
d1
95
70
b5
4b
dd
88
56
d0
0f
cb
c0
b3
a5
c3
96
fe
5f
3e
9d
43
a9
44
6f
20
38
e3
d3
8b
a6
7a
25
c7
e8
97
5a
59
6b
32
ff
54
e5
c9
ab
0c
66
3c
9d
43
e3
2d
61
23
ac
a2
d3
f0
bc
17
d6
fb
5e
33
17
a8
76
1b
4c
a4
ab
7a
6b
e0
f0
86
d4
95
08
28
32
30
ca
ee
42
6e
43
f8
9a
98
e8
54
b3
a5
0a
4b
78
46
55
33
69
6e
1c
16
3d
1a
bb
6c
5b
4c
d6
eb
bc
14
7a
0b
d0
47
86
30
a8
56
af
86
b4
a5
0f
20
fa
50
95
a6
4f
db
3a
1b
e2
76
ca
cd
4c
a6
23
e4
07
09
7e
a5
f5
66
c2
6e
ea
c4
d4
3c
4a
1e
35
18
a5
d5
1c
3c
b2
dc
18
2b
9f
01
19
3a
53
d5
b0
aa
1b
e1
97
7d
3f
ad
dc
99
8d
eb
3c
b9
50
37
24
25
a8
77
c4
35
6d
b5
d9
82
33
0a
00
ea
06
03
e6
cd
4e
36
20
11
03
81
04
f6
24
37
de
04
e3
12
87
7d
3b
f6
f1
de
37
3a
a5
a0
76
cf
3d
42
31
7c
bb
c7
25
30
24
2a
43
0e
ba
62
bf
68
3d
89
50
73
4c
12
78
cc
23
99
b0
48
4e
8b
99
25
ab
6f
70
50
2e
75
a7
9d
26
b3
5c
c4
d0
65
7c
36
3f
76
2e
d4
ed
78
d8
ac
12
97
5c
cd
29
25
70
31
5d
45
ea
22
6c
4b
d5
64
bc
c0
45
66
7b
b2
16
5e
de
6c
b2
60
12
89
b8
16
28
09
25
44
6f
d6
af
55
64
2c
7d
92
03
87
ba
7a
f6
21
23
cf
9f
4c
99
1a
be
00
b1
d4
5a
61
a6
10
d2
cc
6d
ee
e7
55
f7
33
3b
a2
61
60
67
bf
16
6d
20
29
3d
ac
1c
0b
7c
cb
27
f3
1a
b6
18
1c
62
2a
9e
39
0a
65
ee
11
58
ab
10
19
66
4c
f2
31
16
0b
9a
22
76
41
d8
c9
bb
52
f4
d9
22
ca
65
46
03
3d
a9
7e
aa
64
dc
50
c8
2b
42
40
b0
83
cf
a6
6b
25
aa
a5
ce
23
ed
9c
72
bb
df
05
34
1a
f1
52
a0
30
23
4c
c3
7c
47
c9
5e
e5
73
8a
c1
68
4e
d2
61
27
87
64
d5
fc
ff
29
26
d4
93
61
50
b3
df
7b
0b
6d
d5
22
10
c0
15
2e
ba
4d
ba
18
cb
e9
f5
33
77
ab
c1
94
5d
04
94
8e
de
ed
1f
0f
cd
dc
7b
4c
43
84
b1
9b
41
c7
37
c2
32
f9
6e
cb
7c
f2
d1
45
e5
f9
44
d7
22
e1
d9
3a
4a
fe
c8
7e
1a
8c
26
9e
48
56
8d
52
66
2b
15
63
e0
e3
89
bc
7f
5c
23
ad
b0
8d
77
04
47
76
3b
1e
1f
85
52
e7
bd
60
93
d6
73
28
b8
7b
7d
1b
ec
e8
a7
51
e4
d5
e0
07
50
72
e0
1f
74
d9
de
50
f7
31
7f
f0
d6
76
25
58
e2
bc
ea
54
8d
7a
ea
bc
3e
1a
86
b0
0a
c4
c5
e5
3c
36
49
2e
b9
c6
b2
64
bd
00
9d
cc
44
59
e6
eb
77
f5
11
64
38
f5
6c
92
8f
a6
65
69
85
b2
2f
19
10
71
9e
ab
23
a4
00
74
dd
1f
35
98
be
fa
fe
6a
77
70
49
3e
f1
6d
8c
8f
39
94
04
14
5a
ba
11
b1
46
e2
41
0b
b2
9a
81
71
3e
00
7b
21
11
53
aa
92
95
2c
0c
b0
a8
e1
5e
f6
06
c2
5c
87
1a
17
66
c8
4b
45
d3
1a
5a
74
2c
b2
74
82
fd
59
66
de
c0
e0
69
75
65
de
ae
a5
b1
29
52
cc
be
c5
0c
9b
16
79
6b
96
49
6d
6f
41
23
26
7c
a0
cb
16
77
cf
60
5d
ac
d9
b2
75
9b
32
fd
e6
50
f4
48
37
00
fd
51
29
ef
92
2d
29
a0
d0
59
03
1c
da
45
85
2f
0f
78
5d
ba
09
01
54
8c
ac
50
bf
e4
d7
d6
1d
5d
1a
49
7b
99
9b
6f
8d
c3
9c
3c
66
00
07
2c
ac
81
ea
58
e6
e0
0c
de
df
2e
f7
bc
58
15
5a
e3
58
75
8f
79
45
0f
03
1b
1d
48
5d
2c
da
1a
7f
1e
0c
30
65
ce
44
43
bb
a2
3f
d7
0c
60
27
a7
71
e8
d5
1a
a4
d0
38
31
6e
0e
78
35
f5
19
88
14
75
e4
eb
87
f7
f2
9c
ac
5b
6d
77
c9
41
a1
38
fb
67
b1
34
77
34
92
d3
5a
e9
7c
f6
2a
21
a3
2c
bb
1e
6d
c2
ac
fb
c4
a6
a8
02
04
ca
25
32
24
59
63
34
ef
ac
fe
6f
70
26
aa
5a
f0
27
f4
1e
96
03
cf
47
00
3b
a7
f0
7d
7b
6c
e5
5d
ab
26
00
4f
ed
43
7a
0d
c1
ee
0e
03
71
8d
fd
b3
9e
b6
0a
a3
cb
39
a9
e3
00
07
6d
a2
52
ba
b7
8a
ee
a2
0d
c6
1b
4d
92
1e
33
13
3c
fa
1c
45
c0
8b
ac
bc
79
eb
9a
6e
8a
51
be
d5
b3
a9
1d
bd
6d
09
d5
b4
c5
4f
2b
fb
3e
5d
a1
2f
af
88
28
08
fc
8e
8e
e4
13
86
1e
5a
1b
47
3c
0a
a3
15
07
b1
9c
58
14
3c
93
9d
72
68
d0
cb
8c
85
d3
9b
04
63
42
f0
45
b7
e2
d5
12
ce
c7
57
92
84
90
bb
e7
92
5c
de
2a
b7
75
77
5e
13
71
32
44
5f
a6
31
6d
6e
f1
d1
70
e9
32
fb
4c
17
35
35
51
3f
8e
2e
7c
e3
2b
f3
28
a6
f9
97
eb
02
27
6f
ad
e3
73
9f
00
3f
7e
f2
fe
86
be
c1
87
f8
07
88
df
1b
88
ec
d0
e8
58
05
c9
cf
bc
d5
7e
0f
0f
a9
d2
b4
31
1f
66
0f
03
2c
63
d5
51
a6
02
fe
68
bf
d7
1b
6e
a6
71
57
d1
50
e9
59
79
21
27
59
91
9c
56
69
03
87
a2
97
30
43
e5
f4
62
af
e9
c5
21
17
94
4d
5b
87
78
da
ea
4c
8e
57
f2
ed
aa
02
cb
74
61
ca
ad
eb
b8
f2
81
39
cd
bc
57
ab
dc
e6
cb
03
c6
3c
2f
53
ae
9b
a5
95
cf
85
88
7d
66
be
cc
df
52
1a
ce
02
0a
16
da
d8
a3
64
a1
f4
ec
50
90
c8
f4
cb
4b
67
a4
d0
18
c2
d9
9d
d9
6f
f3
8c
d4
8d
d9
06
20
39
53
72
a2
d0
ae
ef
14
5d
86
d7
67
b3
b0
57
00
00
0e
53
05
56
6b
b3
36
c8
5a
85
ad
49
a6
d5
32
41
ea
3d
cb
be
e4
66
63
8f
58
16
13
f8
6a
ab
e5
09
b9
76
68
ed
8e
9a
a1
28
94
bc
22
b2
b6
87
5e
a0
dd
62
69
ca
d0
de
f3
a3
e4
7c
af
c9
8d
9a
66
f0
60
39
ac
71
12
68
32
9c
4b
26
8c
c6
1d
8f
66
8d
40
ab
56
f6
62
37
6c
f1
82
2f
ac
48
92
6a
7d
66
f1
cd
63
9f
25
ba
2d
35
d1
54
1a
b5
c1
fd
46
56
8c
0e
35
b3
c1
4b
93
52
3b
e5
47
a9
fc
5e
6b
83
ce
54
c7
d0
42
5d
c6
33
99
f4
f8
10
18
00
2f
ff
93
da
d6
09
52
84
55
1c
bb
15
36
17
2b
95
ec
a7
3f
99
69
21
dc
3e
f1
c3
14
ea
ac
44
2e
52
1f
3d
02
9c
16
86
52
7e
5b
a0
3c
56
8d
4d
73
df
3f
91
49
f7
89
e9
ca
e4
39
be
82
33
83
63
9c
bf
59
2d
d6
85
8c
47
9f
2a
e6
a1
3b
96
1f
c1
0e
88
b3
eb
a2
b9
50
18
fe
64
b5
54
b2
7c
65
e6
36
0c
83
a0
50
5f
e0
19
17
e1
ef
47
e8
eb
1e
da
97
0e
65
10
f8
d4
11
1c
42
61
e7
ce
58
5b
68
0f
d2
75
b2
75
67
1e
90
6a
36
fb
12
b5
06
f2
40
2a
f2
02
0a
ea
c5
0b
fc
76
bf
ac
bf
21
76
51
0a
ca
9e
3b
e2
37
89
20
6f
3f
00
1f
ea
9c
cb
90
53
9a
37
15
09
e3
ab
c1
b4
9e
ad
5e
93
e7
49
9b
51
c9
1a
52
c7
de
90
a0
34
8e
b4
ba
32
58
92
f0
c2
cc
0c
30
a1
c4
a6
9e
5b
a9
15
ca
1c
46
f2
17
96
dd
0c
c0
89
fb
6d
3f
ae
62
3b
31
63
97
c7
e8
1e
5f
1b
6e
99
fe
13
97
10
64
90
ae
fd
54
1b
8b
64
e0
cc
66
a2
14
fd
66
91
11
8d
43
33
72
f7
5c
0f
7e
1f
90
6c
b3
83
62
fc
2a
5d
da
8f
04
11
32
d4
44
76
39
f1
7b
74
e5
83
4e
6b
dc
eb
a1
56
99
a0
a0
25
3c
7e
c4
f3
5a
e8
21
d0
98
3c
6f
d2
a3
19
13
8f
04
35
7c
bd
5a
f9
86
ea
d7
99
51
a2
ff
a8
48
b6
3d
3f
c7
6d
e1
62
b3
02
30
95
98
ea
03
68
c0
d1
79
23
07
fc
ee
92
22
00
eb
42
52
87
2c
9b
37
7e
72
a9
e6
bf
48
c9
17
53
99
87
84
3e
f4
f6
bc
3d
d6
be
7e
de
1b
6a
77
76
c2
ef
b4
3b
ae
cf
b7
75
8b
1a
cd
eb
e0
81
38
51
f4
11
fd
e3
30
7d
0a
aa
cb
64
35
3a
5f
9b
e2
8a
c9
0c
00
25
6d
c3
23
c6
00
f4
4c
49
3f
10
56
87
8f
ce
89
a2
27
8e
45
c0
77
16
d9
ea
b5
01
04
24
5a
bd
ed
f5
9a
84
7f
aa
a2
27
da
1a
e0
04
3b
f1
38
5f
a5
20
60
dc
9e
83
cb
b5
4e
1d
c6
9a
23
51
6c
49
d6
4c
52
7d
13
16
28
87
db
24
4a
c9
d8
4e
0f
78
0b
24
5c
0d
a7
ab
9a
6a
84
d5
9c
d6
49
3c
c1
79
ec
8a
37
c7
7c
33
16
d4
ba
87
da
ad
7d
14
ce
73
09
35
54
32
0b
87
ea
1a
b0
78
b4
f6
0f
45
21
0b
8d
1f
3b
4f
48
e6
58
fc
95
21
1e
76
fa
19
b9
4a
1c
c1
0b
17
d3
46
e4
95
fb
ce
4c
ec
94
a2
56
16
da
de
90
36
63
74
97
62
d1
e7
f2
9b
6f
1b
54
f3
7b
d5
55
1f
fc
25
53
74
bf
f9
1c
69
82
ba
d2
76
32
74
ca
f8
45
da
e5
1c
57
30
15
4c
f4
2d
a0
f3
22
25
ee
b1
00
33
41
f4
e8
45
91
08
9b
d9
c2
2c
79
6d
44
67
bd
4b
77
1c
57
1e
62
2f
3f
83
ad
1e
69
ee
c9
42
18
49
7a
12
ac
75
54
32
42
07
8c
fb
fd
0a
23
cf
a0
bf
ad
81
b4
4b
ac
14
89
e4
8f
23
90
79
ea
0f
57
76
ff
7e
9f
35
e4
f7
cb
cc
94
96
69
2f
79
cf
1b
5b
bf
4b
55
2e
04
47
f9
64
3b
1e
09
49
90
61
fa
4f
f4
45
54
99
3b
b6
79
13
8b
d5
5d
d3
7b
23
fb
07
c3
62
93
71
a8
3c
9f
8c
25
4c
39
ea
24
fb
1a
60
de
57
e1
38
4a
69
34
97
13
47
2b
f4
4c
4d
ef
4a
43
dd
7b
fe
89
7f
89
0e
47
28
9f
9c
71
63
e8
77
a0
4e
23
78
ec
4d
30
96
75
ad
fe
fe
9f
98
8c
b6
c4
c6
0d
0b
97
db
eb
f5
00
36
1d
a4
c7
38
90
39
8f
90
3d
63
53
7d
b9
5e
d6
62
f7
4a
41
b8
2b
06
31
74
6d
bf
bf
ae
c5
fd
53
af
54
e1
b5
7d
f0
35
7a
da
f4
a8
b7
d9
82
3a
94
df
de
e5
8a
ac
c8
e8
67
67
96
ad
c7
67
b8
49
46
4b
46
8c
85
cd
11
0c
d0
4c
cb
17
e3
86
fc
6b
f7
30
dd
ec
50
dd
f5
a3
c6
29
43
58
97
e9
f5
c7
09
ef
54
19
21
88
cf
8e
f2
5d
3e
59
af
c0
8e
2f
3e
03
62
b7
2b
2f
96
3f
fd
6a
a9
8a
f3
b8
e4
ee
84
16
d9
09
bc
1d
95
f2
8d
9d
79
9b
0e
88
66
d1
00
2f
6b
3a
81
ed
69
ac
4c
04
98
78
18
ab
b0
56
88
50
f4
a8
65
bd
60
79
00
84
e2
66
e5
b4
16
35
7c
08
2c
4d
1e
71
57
be
ff
19
56
05
98
6f
1f
ce
bc
dd
cb
a6
04
9b
5d
56
86
e1
ae
7e
19
43
86
dc
56
99
02
9f
85
95
95
0a
68
83
8f
75
46
ce
d1
47
eb
c7
af
25
7c
be
ce
d7
91
3b
8b
b5
8f
82
6d
b4
0f
ac
24
f4
f7
8c
ed
31
8a
a6
ce
35
83
20
cf
3a
13
bb
8f
31
ae
19
01
bf
44
c4
d1
15
9a
08
47
a7
0c
4d
4c
6b
05
fa
0a
a0
4a
99
4a
5b
9e
29
48
06
aa
e7
3a
59
a1
16
19
3c
60
a2
dc
51
fb
83
f1
c1
65
53
29
0a
c6
c9
d2
8d
20
5a
7e
ba
e3
26
d5
8b
1d
44
59
d1
d2
1d
00
40
64
10
a8
b9
21
f5
d5
e6
93
8c
ac
ad
0d
a3
03
65
5f
89
ac
94
de
6f
70
a2
97
cd
38
85
28
cf
88
9b
9a
cc
78
b7
59
93
91
31
5a
ba
ae
58
54
ca
60
7f
b5
37
8b
2b
a7
4a
aa
6a
7d
52
27
b7
1c
fd
58
ec
8d
59
2b
73
b6
81
86
6e
63
26
8f
62
73
25
64
be
58
7a
9f
00
e4
db
f8
47
12
d3
d6
e7
9e
79
68
2d
4a
ff
f4
88
52
4d
98
15
4f
d0
a6
de
60
2e
3a
5d
cf
9a
d0
13
e8
45
d0
1b
cd
bf
6b
fb
02
4c
e7
7b
0c
fd
9f
06
cd
65
56
88
9e
bb
48
9a
6b
a5
ee
cb
fd
9e
47
3a
da
30
57
92
43
20
73
7b
8e
2f
ac
bc
c9
43
eb
e3
86
84
14
b6
12
62
7a
a7
e8
2c
0d
16
45
56
a3
35
c2
01
98
49
10
55
f5
a8
b8
b2
41
6b
f6
be
08
15
6e
66
51
5b
5f
48
61
69
e8
22
39
d0
7d
40
3e
eb
3e
84
45
72
16
f7
da
20
28
0c
f8
f2
4f
a6
1f
87
5f
d6
aa
bf
3e
3d
e1
85
ea
18
d1
0c
18
d2
8b
85
5d
65
d7
c7
c2
0d
9d
40
0e
ae
3f
ea
d5
c4
1c
41
52
3e
ef
34
98
c5
92
bb
e9
19
c9
92
cf
08
f9
8e
e5
c2
89
b9
9c
3b
f0
7d
3a
2c
09
44
cb
08
ea
c8
d8
fb
b0
13
55
d1
23
fc
10
e5
c9
1c
fc
44
cb
ce
0d
dc
7d
35
45
e2
33
11
ab
e5
b1
31
46
25
13
00
72
5b
28
00
0e
95
cd
74
d9
65
4d
cd
d8
98
d1
b1
1f
be
21
be
ff
79
3c
ba
2b
59
57
b2
c9
e6
8a
0c
77
05
2a
4a
eb
97
4d
de
ee
02
eb
a5
67
81
c6
f7
5f
e6
25
dc
3d
19
ba
3a
f4
05
4d
f4
9d
8d
b4
d2
83
30
f4
5b
ab
66
46
90
26
79
c2
cc
ee
ca
be
50
b8
74
9d
1b
dc
07
72
ac
07
3a
1f
20
0e
be
4e
e6
34
05
54
43
5c
df
cd
cc
7f
f4
84
d4
ad
b0
54
00
bd
54
6a
4b
44
f7
d4
3c
1e
04
a9
c3
24
88
f5
3d
1c
8f
9f
b1
ad
fb
13
21
51
cc
d9
7c
98
1e
de
83
92
55
39
98
b3
30
16
87
62
9e
e7
fd
bd
d6
33
3e
f9
56
ad
70
05
22
f7
f4
96
cc
32
3c
fd
98
98
bf
1a
c4
7b
9f
a4
0d
bc
fd
bb
46
f6
00
e6
ac
94
63
db
7b
cf
3e
22
a4
07
51
c4
de
4c
81
1f
63
8a
c2
4d
d0
ee
26
9a
aa
cf
a5
a7
a0
98
be
27
c2
2d
9c
26
e4
41
55
0e
ce
d7
47
f4
86
9b
a1
a6
77
fe
6d
a5
b8
d4
c0
04
7f
d8
fc
6d
f4
5b
2b
a8
17
c7
0f
98
ef
d2
87
fd
7e
a4
29
d5
35
94
09
06
a6
4b
01
af
9d
5b
6b
f0
30
d2
05
91
dd
32
fe
a1
17
a7
8c
5a
ac
02
d2
27
3b
db
58
c6
44
77
92
a1
38
30
b0
9f
9c
bd
fe
12
96
bf
56
24
c8
e5
2b
a7
56
28
9b
10
24
aa
1f
e0
f7
2c
e1
67
d0
ab
ab
f6
0c
d3
1c
1f
f9
77
c7
b6
6f
26
09
68
95
88
37
c1
44
c0
d0
96
cd
b8
fc
a9
e8
d7
d0
5c
1f
6b
44
30
24
89
da
25
37
af
95
6c
34
78
0f
90
99
36
61
3a
13
3d
81
84
89
c7
81
cc
7b
54
5e
ed
ba
62
96
3e
0e
96
ae
8c
44
de
1d
ba
6c
08
e7
68
2d
8d
56
4d
09
b6
14
ab
24
0d
0f
78
b0
16
07
51
2d
82
d2
fe
21
49
93
3d
ad
f7
7c
be
1d
46
aa
15
ba
d3
c4
66
4b
ff
34
c8
0b
5f
6d
9e
87
ba
21
01
00
98
03
a7
67
09
10
d1
73
bd
01
67
00
ba
0a
ba
77
e5
69
57
12
8e
8a
6b
1a
76
d6
2b
eb
43
db
ef
ef
cc
de
9b
09
fd
bd
f3
db
20
42
9e
a4
9c
96
df
08
a8
d9
8c
2d
7b
8a
1b
d7
59
ff
8e
0e
00
e6
8e
76
f2
b9
fc
93
43
28
e4
cc
4d
84
9c
aa
a3
f1
18
5b
12
cb
fa
60
98
68
0f
73
c2
d2
d8
a3
f1
e4
77
47
7a
26
17
69
6f
17
d8
97
f5
56
53
c6
55
61
fa
90
c4
f1
1d
22
55
5a
db
7e
56
68
b1
cb
27
a2
3e
9b
c2
a4
32
b0
89
cf
00
90
0c
79
36
34
a5
24
6d
24
93
60
dd
8e
4f
2a
55
3b
69
8b
78
64
b5
21
a1
77
53
e5
da
61
c6
71
c8
fb
86
34
7a
ac
8b
bd
50
40
59
9e
0d
f6
f3
38
73
23
00
1f
57
d8
59
a8
34
23
43
20
5b
5e
ef
82
f5
3e
ba
17
96
ac
01
56
31
29
41
b8
be
75
29
dd
63
67
e8
7f
a8
d6
59
af
12
12
a4
09
44
a9
09
6d
29
9a
67
2e
1f
31
19
3f
a6
4c
0d
c7
e9
1f
5b
59
52
51
98
e3
42
36
16
08
06
98
ef
82
f8
39
09
84
61
9b
32
9c
5d
5f
a4
d5
01
d0
1a
e7
6b
7c
47
8c
63
0e
b6
7a
27
ac
cd
e1
34
60
43
81
a4
e0
13
77
f0
2e
c4
ae
4e
c7
6c
6f
77
06
b1
08
07
48
be
29
2f
99
03
fb
9f
54
aa
1b
42
29
d5
19
a6
af
f3
32
45
f8
96
9b
c3
81
58
26
fe
d7
9a
00
7b
78
4b
c5
f6
d8
b4
7d
ef
83
4c
fe
43
f8
67
89
01
e3
3b
be
f7
e2
da
12
f0
27
e8
fc
52
c4
8b
7e
7f
6c
39
e3
ea
00
99
27
e9
19
e0
15
17
a3
60
92
ec
31
8a
cf
45
85
27
69
3f
6d
5d
d2
e0
60
d2
cd
2e
27
ed
8c
b6
2c
ea
7d
ae
7d
20
38
ba
7a
c5
0d
55
9a
96
05
0d
46
c7
3f
1c
66
e1
f2
54
50
96
64
28
e4
2d
66
63
00
00
c3
6b
08
3e
18
44
66
81
d5
fd
06
e9
46
4c
6c
ad
fb
2f
f9
53
4d
4b
2c
b8
a7
39
17
3e
d0
4f
3b
64
96
a3
6f
7a
72
b5
94
33
03
07
81
c9
c9
98
ec
0c
cb
95
65
b7
08
62
04
b6
03
45
ed
3a
99
fd
11
b4
17
5e
1d
54
84
24
72
ae
77
d9
02
ac
e7
c0
24
7d
b2
c4
91
84
74
82
31
d4
ea
d2
6c
e9
3d
9a
4a
17
fd
ca
4a
c1
87
7a
2d
0f
6d
36
8a
a9
a3
d3
b7
03
62
cd
7e
9e
b6
00
dc
11
7f
e1
5b
17
9b
a7
77
d1
6c
da
d1
ca
79
26
41
ed
94
e4
1a
74
00
27
f7
af
0b
06
56
ca
9d
c2
76
01
ae
3b
34
3d
ae
a5
7d
a7
9f
11
19
32
77
57
ed
fb
61
d1
44
46
24
e8
f2
5b
3a
23
95
a3
55
59
e8
f9
16
e7
f7
b3
b0
7d
fb
bc
df
3c
dd
a9
dd
b4
54
99
a8
f5
5a
b3
ec
8f
34
be
b9
e3
41
40
e8
f1
a0
60
fe
81
a1
15
1e
0f
8f
50
34
28
ab
bc
ad
68
75
59
40
94
3c
13
4e
af
ca
d9
d6
93
07
c4
3a
08
c1
d2
c6
6a
e8
4d
ca
c1
9d
e5
f3
bb
17
35
69
73
a8
40
26
59
b3
a4
51
4b
08
0d
69
77
59
1f
6c
82
0b
a3
4e
ce
84
d9
bb
39
02
d4
14
37
e3
c0
ec
ac
62
24
34
ba
bc
5b
f9
40
92
da
6e
24
1b
e2
1d
19
fb
23
6f
9a
07
37
ce
69
d0
95
12
76
43
f1
9e
7c
cf
f4
9c
95
73
5b
ae
51
d9
0d
41
e9
c9
7c
38
de
08
70
6a
6a
d3
f5
68
d9
7c
29
f6
6b
d0
77
93
5a
ec
b4
3e
2c
b9
66
8e
a5
da
6a
e8
f9
7d
d5
7b
c9
58
18
13
1b
84
77
a2
63
8f
ed
f1
33
da
1d
b5
ab
fe
9c
d4
cf
99
ab
7d
1b
2f
de
56
4b
8d
b9
40
37
c3
74
9a
89
c8
aa
bd
06
8b
0d
f1
4a
f1
a9
e8
c7
b9
3b
4e
bb
b7
c1
40
3e
98
3f
70
8f
e6
9c
36
f5
6b
6c
a8
72
51
fe
c0
4d
c2
8e
32
4b
da
1f
ce
e7
5f
b4
6c
d7
7f
46
fb
a6
07
da
65
d9
2e
73
8a
fc
e0
74
2b
7a
1c
d7
69
c1
7c
36
a0
fb
9a
87
8b
df
6c
b8
68
c8
97
5a
40
2b
27
73
3f
93
15
23
bb
8a
92
a2
22
60
b7
fa
4f
fb
ec
d3
ce
f2
b6
e7
16
a0
1e
8e
10
3a
3a
69
bc
2e
de
8e
62
c9
07
72
bb
25
92
ff
b4
00
09
f4
28
17
a0
de
7e
88
ee
a8
fd
2a
4b
61
fa
5b
b0
bd
9a
ec
99
6f
c4
2c
99
fd
b7
45
79
1f
d6
e0
dd
00
8a
78
41
f5
7a
07
ad
1d
96
c6
95
56
6e
d3
3c
a9
e3
3b
38
18
c9
65
dd
7c
99
bf
95
51
7f
f0
38
4a
1e
d1
90
ae
bc
2f
5b
9b
a0
73
8e
e7
88
d4
50
7f
04
94
87
d0
90
ac
5e
f9
f3
bf
bf
3c
24
52
91
b4
c6
b2
73
a8
da
58
69
42
ef
06
0f
2b
2c
a9
eb
b6
69
ba
ab
0c
a6
01
d8
c1
10
96
43
2e
a0
ed
1f
92
c6
10
c7
2d
20
de
ed
2c
ca
33
25
9f
aa
44
b8
0c
7f
e1
12
f4
45
07
07
11
89
d1
ad
05
3d
7f
c8
f2
0c
20
56
f5
5c
57
07
3b
6e
8f
f8
21
4d
67
fb
05
b3
fe
8f
ed
92
85
52
79
6d
5b
91
8e
3f
c7
fb
bc
71
40
59
b3
e7
93
5c
12
ae
c2
b9
2d
f0
17
9d
30
9a
58
ca
f9
ee
9c
2d
1f
a4
48
0b
ca
c6
3a
c2
e6
e8
d0
f5
f5
03
3f
9c
9f
7a
39
f3
ba
23
21
09
8f
2d
a6
f9
68
1b
b4
71
09
0c
a2
28
69
05
d4
c1
a5
6e
cb
ad
b1
eb
d2
c1
82
33
1a
f1
8e
79
42
f0
ff
ff
bb
1f
af
35
31
39
cd
ba
88
52
b0
15
1a
cc
a1
8a
e0
39
02
2d
63
70
ce
8c
88
38
b4
24
2e
a5
ff
3d
11
de
83
f3
34
29
bf
99
6c
8e
ad
5e
33
76
09
ae
0e
a7
fa
77
5a
db
e5
73
04
50
3b
3c
f3
0c
4d
e2
9f
b0
0a
21
2b
9d
3e
cf
ff
55
7d
90
85
bc
15
92
2e
12
5c
0e
ac
4d
11
ac
ec
03
d3
fe
36
ba
38
a1
aa
df
96
8e
19
f1
89
0e
1d
68
7e
38
ba
52
7f
7f
90
4d
24
3c
9b
2f
13
ea
0c
b9
de
9b
82
b2
a0
36
98
23
7a
34
32
24
15
5d
bc
63
e0
0d
14
a5
1d
5f
84
56
a6
7e
6a
88
bc
1e
d1
57
2d
0e
1b
cc
fc
e9
f3
d1
e1
15
15
10
5f
1b
f0
3c
39
31
ab
8d
32
e0
33
9d
ca
4c
36
ba
a4
72
76
c9
96
a0
8d
12
27
17
83
d6
c2
5a
ec
dc
63
61
82
b2
08
54
c0
b1
2e
48
0a
89
9c
13
56
3b
f2
73
62
ff
a5
14
2f
ff
3e
d9
ad
3a
44
c3
88
f5
9f
49
93
fc
1a
2f
bf
45
6e
05
d6
aa
24
50
7f
fd
4b
6a
d2
81
bf
84
07
a9
af
4b
68
b0
8a
c3
54
1f
ee
70
82
1c
19
de
87
d1
20
76
b4
1d
64
48
a7
84
bf
b7
60
0d
20
d8
b9
e7
22
9e
e4
66
ba
78
f2
94
13
a0
d3
31
59
a6
93
1d
8e
fc
0c
ee
d8
10
43
6b
82
19
13
00
29
6f
e7
f8
02
a4
fb
1f
f7
2e
e0
c1
a8
ec
47
89
41
e2
b8
da
7e
bf
8f
a1
1e
f5
2e
ff
75
57
63
60
fe
cd
a7
d5
37
54
06
e2
ea
85
dd
bc
b2
ad
9d
0c
d4
da
ce
14
29
5d
1c
ab
e5
62
9d
cc
59
89
cf
4f
b3
72
96
91
f8
f6
b6
d0
f5
4a
d1
93
6e
0f
49
6f
c1
83
76
4f
9e
62
48
0c
48
e2
06
b8
15
84
0f
49
dc
3d
b9
bc
d8
cf
dd
50
6e
b8
7a
e1
06
75
63
c8
02
0f
c7
a9
e3
13
2d
64
1b
0a
05
73
46
e5
4c
5d
54
a6
c5
28
8c
9c
78
cc
0f
2c
a4
c1
f1
5b
e2
b8
b6
46
12
40
ed
f9
db
41
38
ed
0e
c9
48
ad
08
3c
5f
0f
1c
22
70
43
e6
a7
89
60
33
73
a6
1a
a3
f6
a4
46
6e
0a
85
1d
be
19
f0
c0
fa
3c
38
b8
7b
cf
1c
8c
50
36
e5
1d
be
71
26
90
62
37
6c
00
d6
8f
f0
66
6f
58
d5
00
b7
3e
36
34
8b
1a
93
f0
ae
89
29
ff
fa
f4
4e
85
11
8d
77
5a
b1
11
49
9e
4d
71
04
49
ed
c8
d3
13
02
b8
e8
e2
cd
36
8a
dd
07
9b
b1
fc
21
f8
cf
9f
f6
e6
c6
17
77
3c
32
c1
de
5d
a8
99
d8
09
9b
ad
4a
21
c1
42
96
57
ec
b5
3a
b7
89
1f
63
69
db
17
56
98
30
34
45
06
18
78
65
55
0b
53
66
02
75
b2
ff
c4
f5
7a
96
40
42
09
7c
68
8d
1e
26
f8
1c
3d
be
2c
8e
9e
cd
19
78
e1
b3
14
09
6a
36
e2
94
e6
b8
b1
99
1e
59
f5
bd
10
a1
ed
f6
94
39
be
8b
0b
4a
49
81
28
a0
96
58
f1
1c
c0
43
9a
45
92
ec
ab
36
89
32
65
1e
d8
32
fe
44
f0
23
4b
7a
82
89
ba
46
6e
65
01
12
88
00
d0
77
3c
8c
9c
b0
b5
33
83
b1
0a
24
f6
f2
2f
60
a6
95
a1
4f
a0
c2
76
44
e4
f4
83
4e
6a
31
e0
e4
06
67
0a
7f
b1
5f
9c
b5
60
7e
b3
a4
c2
45
6e
e2
7f
9a
f6
ff
19
19
24
3f
1a
ab
fb
2b
85
62
e1
2a
26
52
c3
5f
3d
0a
73
31
92
de
6c
63
d8
0f
b6
49
ed
0c
7d
ae
01
db
83
71
48
d4
12
f5
90
07
20
f2
70
c5
bd
b4
46
b0
e4
c2
02
85
83
c9
25
f6
46
5e
df
cd
3d
a7
67
0c
1c
d1
f5
3b
5c
8c
67
d6
75
e3
97
00
5a
29
8f
a0
83
05
3b
82
ae
41
c4
fc
7d
17
95
30
39
4e
d1
1f
44
a9
99
47
8c
fe
b9
c1
d6
26
db
ce
8c
5b
0b
9d
3d
cf
a6
a7
b0
b0
f7
c5
b1
96
60
0a
14
a5
3a
df
6c
ca
7e
35
cc
5c
ff
ad
ce
5d
da
ac
ca
46
51
3d
5a
06
fa
05
be
a8
09
b9
19
fd
45
87
cb
58
4b
16
41
93
86
09
2c
18
1c
cf
81
30
65
ce
06
d1
b7
b0
2b
d7
a0
06
55
70
9a
1c
1c
5c
e5
5b
a2
58
af
eb
70
2f
23
f6
6c
f0
30
0e
84
58
15
d5
1e
84
1f
13
59
1c
f6
2e
35
5b
eb
15
93
fc
d6
a0
0c
6a
62
bc
f7
00
ab
dd
9a
fc
ee
c9
c5
ed
31
ab
c6
b5
7a
21
04
9c
81
c8
9c
3b
1f
73
58
69
79
d3
8b
b6
74
00
84
20
19
27
ca
94
61
29
6a
f2
c6
8e
32
e4
00
71
24
ad
14
ba
36
63
1e
f0
1b
ff
38
f4
34
bd
2a
49
93
50
5d
67
f7
36
c7
64
7d
ba
c8
7d
40
81
73
dc
d9
2c
46
88
27
95
f9
e8
a5
b5
7b
91
13
6b
1b
c5
05
4d
2d
98
00
c2
9e
a6
57
27
52
d3
8e
8b
00
74
ef
72
48
4a
a3
4c
40
ed
ba
9e
c0
be
75
f8
2f
4e
db
14
08
b1
aa
f6
c9
62
69
c9
0a
1a
32
a4
2d
a3
4c
23
2a
82
4b
c4
32
3a
4b
64
e7
05
e7
ae
13
18
f9
75
85
51
2b
77
ca
23
f2
31
66
b4
99
18
01
f9
eb
73
9c
3d
8e
b2
46
e6
5a
ba
c9
b4
bd
12
1f
d4
50
5d
0c
1a
70
7d
1c
21
9e
aa
3b
c5
d8
f7
b8
96
39
16
6a
a3
59
05
ab
a8
7a
f3
bf
af
c3
04
90
d5
cf
04
f9
84
9d
88
ef
61
08
15
8f
b6
e4
88
c9
7e
4a
2c
d8
98
ff
89
1f
3a
46
f6
ed
13
d4
7e
aa
bf
c3
f0
d0
56
38
0a
9a
84
4a
ba
be
63
55
ca
5f
73
34
c8
08
eb
b8
1d
be
dc
7e
a4
22
d0
64
5d
48
dd
a2
3e
69
af
b2
c7
27
16
0f
04
a2
66
ae
6f
4d
db
47
f8
f8
73
38
c5
a8
cd
7e
2c
c3
e6
b7
ea
5a
bc
69
6a
33
6c
57
98
4b
62
f1
1b
f1
20
6b
ce
b5
f3
09
72
3d
73
af
67
20
7f
fd
0c
5b
72
ba
18
04
41
6f
f6
45
74
4d
41
ce
62
93
ec
b3
64
9b
c0
f9
78
99
01
e2
f8
02
67
76
7e
8c
5b
00
48
a5
07
86
ad
4d
7b
85
48
74
ff
f0
69
f6
01
f1
08
e1
d4
0d
d7
04
bd
e2
41
27
01
99
98
81
df
62
f3
25
c7
8d
1a
f7
cd
07
f1
86
f2
c2
8e
52
99
7e
61
a3
bf
91
75
a5
46
59
d4
4f
f6
90
f4
6d
cf
ea
ae
c2
1a
25
59
f6
f6
e2
9d
cf
32
db
57
c0
a0
fe
9d
29
0b
90
76
46
c0
4d
25
ec
2d
60
ff
ed
df
8b
1e
73
b0
1a
cf
ef
61
2b
0a
14
f2
76
bb
b4
2a
f7
9a
25
b1
74
bf
0a
95
fc
65
44
fa
21
2a
ab
34
9c
a2
55
14
53
ab
46
74
cb
6d
83
8c
b4
2c
e2
f1
5e
8e
dd
2d
d2
e2
39
a8
97
e5
fe
86
61
cd
20
b2
d2
74
73
ff
46
3c
29
1e
8b
09
a9
cd
99
c9
33
86
22
2e
00
ce
f0
a9
20
05
0a
95
cf
01
3d
68
91
c0
4a
32
ea
f6
c0
95
04
4e
b4
7b
d9
9f
b6
14
34
d8
b8
5d
6a
9f
7f
ec
de
30
5a
8d
ae
5b
5f
4e
e5
ff
c4
0e
ee
19
4b
96
7b
90
85
bd
9d
6a
05
70
26
73
1c
13
50
40
e2
52
05
77
82
53
84
79
e6
34
99
a7
15
11
ce
90
19
bb
58
3d
44
42
00
90
24
11
e0
db
7e
ab
fa
d6
2b
04
ec
3c
6f
aa
43
e4
78
81
b0
8e
96
8d
62
b3
ce
c2
f5
5a
34
f5
d6
2b
aa
82
19
16
c8
1b
03
4c
62
98
71
55
68
60
be
f6
d4
7b
f4
b6
d9
42
52
f4
4b
da
c4
e9
c6
d2
61
d6
3d
a6
f3
ee
00
c3
dd
85
bb
de
83
c7
5b
c1
fc
9e
e7
7e
66
0a
9d
04
c0
b7
32
c3
9e
af
b4
da
70
a8
1b
7b
bb
24
5a
2b
1d
8e
2a
c5
99
98
17
a1
1f
06
6e
29
21
fe
de
62
16
f1
c1
86
3e
f8
c5
87
0a
e7
6b
99
91
82
3f
6c
5e
9e
3b
03
0f
6b
8b
28
2c
dc
0b
61
d6
49
c9
10
e4
bd
5a
f6
1d
cd
be
db
fd
8c
1b
04
e2
b0
d8
af
83
c9
87
95
8c
df
ea
23
d8
67
c7
6d
29
6d
b2
12
00
c1
1c
3b
0b
ba
68
0e
d1
9e
33
27
53
2f
3f
4d
0c
7c
3b
3f
50
06
72
ed
23
48
91
c1
df
b9
6e
fd
5b
6a
c1
47
b9
a2
02
20
66
cc
01
df
fd
27
e6
cf
fa
3c
b5
67
55
c9
ed
51
a6
4e
90
69
c5
18
38
8f
ef
ec
25
e0
2d
ea
d5
b9
73
b2
05
5b
fc
c4
a3
66
67
dd
18
05
32
f3
31
0f
48
99
3a
e3
7c
6b
cc
66
19
d7
fc
5a
84
e2
e5
27
bc
ab
37
21
b9
55
52
b8
2e
2a
b5
34
6b
f4
0c
21
ee
68
a1
40
3a
34
05
0d
60
5c
a2
e9
52
34
a5
6a
39
fc
4b
b3
94
ba
26
25
04
b4
ae
5e
cc
de
ec
e6
35
c1
a0
9b
e9
ca
be
1c
1c
e3
48
bb
ae
03
23
a3
11
a8
57
8a
c7
b9
fc
c4
4f
82
14
21
c2
c0
7e
e3
b0
a2
4a
b3
2c
bd
4d
8c
b5
1c
d5
23
f7
d6
f7
e3
fe
bc
5d
7e
fa
a2
bf
19
fa
b8
98
e7
60
55
65
16
8a
ba
9b
ad
9a
ac
e6
a1
08
06
5e
31
65
20
02
dd
67
fc
51
e4
d9
9d
ab
bf
73
95
d1
de
cd
9d
66
27
91
9e
3c
dd
b2
51
32
a1
35
05
0e
b2
6f
98
e7
2a
a2
ad
e9
a1
de
76
ad
7d
d3
70
d0
aa
65
b9
b3
ce
64
6e
bc
58
97
65
aa
a3
de
a1
4c
01
5c
bd
0a
28
a3
f1
5a
c0
bd
bd
44
20
00
74
dd
99
86
23
9f
75
25
21
fd
4d
05
b4
73
be
79
82
1e
8c
cb
3b
b9
d3
53
99
90
e5
20
62
1f
6d
ed
79
5e
e8
84
a8
b7
e5
91
a3
cc
ce
dd
4c
b9
ce
2f
b1
89
ad
16
e8
68
d4
45
f5
29
31
87
54
34
24
50
3a
9d
1d
30
75
64
63
0b
78
41
92
83
db
d1
d2
c4
1b
b9
26
96
19
76
10
a3
cc
e4
2d
27
41
e7
cb
3c
96
3e
20
02
da
e8
13
cd
a4
6b
d2
33
84
0f
73
47
2a
19
95
0b
83
00
cb
05
eb
cb
03
84
b3
00
e4
52
42
f6
20
b7
0c
93
8d
00
77
11
f1
b3
26
27
9e
8c
9b
43
09
87
0e
e7
f4
b2
68
14
90
ee
62
90
57
11
3d
ae
d5
3e
c1
2c
aa
e3
45
df
60
8f
b8
f9
57
fb
ef
21
2f
a4
c3
78
12
59
50
03
a9
ba
a7
69
ce
ad
a9
27
00
9c
da
d3
4d
49
70
25
f6
24
5d
19
20
bc
49
4b
01
b2
5d
b4
c2
82
7c
94
7b
23
2f
7a
25
6f
3e
c8
e3
8b
9f
d3
4b
2b
bd
42
ff
2b
9f
ce
ac
dc
34
0a
e0
6a
8a
e8
a2
73
77
cc
e5
e2
25
72
cc
ed
59
26
01
8d
4f
00
25
e3
34
4c
98
46
16
99
0c
c0
c1
83
8c
51
ab
cf
0f
0b
57
85
01
63
6f
60
32
4c
7e
0d
4b
d6
f7
87
8d
92
e3
d0
ec
12
cb
09
41
99
26
44
06
9b
8c
3e
4e
06
d5
01
01
49
7f
b5
68
7f
ab
40
b8
ef
43
44
1b
58
20
ef
0d
64
35
a7
f8
8c
b2
b3
21
b4
2e
6a
2c
a1
52
46
4c
8b
4a
6c
86
d6
0f
75
a7
66
d7
84
7d
e5
61
a9
34
60
6b
91
c8
22
30
07
f3
b6
00
f0
72
db
47
8e
33
4f
7c
c9
f5
91
24
34
5a
72
8d
a4
33
ab
fb
25
4f
5f
c9
f6
98
9d
69
f3
74
e7
35
56
5b
7c
44
47
a0
e7
86
ec
91
8e
5a
81
fe
c0
1d
ad
40
a4
ec
75
54
3c
cc
05
8f
7c
17
45
a1
28
10
1a
4b
9a
bf
bc
7b
8f
68
13
30
4e
fa
2e
5c
1d
8b
39
c8
0d
42
7d
fc
37
a8
ca
e7
db
75
68
62
6f
2c
a2
03
37
07
54
ae
91
17
fa
cb
c8
d1
79
9d
b6
ff
95
99
26
49
65
33
32
d5
90
34
ba
1f
09
ec
17
ba
7e
6f
42
c6
66
13
dc
33
d3
90
fe
1d
9d
a3
0e
90
03
55
eb
cb
06
1d
90
8d
5e
0e
df
f3
19
a0
2e
f5
e2
b4
7d
38
7c
c2
4e
fb
85
e0
2e
e2
67
db
d3
29
31
16
37
43
5b
05
0b
a5
0c
7d
a3
03
a0
50
0b
6f
f0
85
a6
e2
0a
96
01
51
f5
bd
42
63
71
4c
62
3e
c2
26
38
99
9c
ed
44
da
87
0e
48
e9
96
39
48
69
67
81
01
69
fd
e3
76
89
09
40
7d
ab
2c
df
bb
0c
a3
64
82
db
b5
e8
63
86
a4
d1
a8
10
73
48
0f
a2
cf
79
1a
3f
c5
de
75
4a
63
2f
3c
bb
0d
a2
71
e6
42
4c
31
03
16
54
5b
21
51
ae
52
a4
69
8b
7e
0b
3b
ff
9a
3c
20
5d
00
e7
4e
10
aa
07
a6
c0
e2
5c
f7
09
89
b3
93
e9
5c
e9
41
34
0e
18
3f
c6
68
94
e6
b4
c4
8b
d2
1e
9f
9b
a3
9a
b5
db
3d
b7
0b
f2
30
67
3a
d8
41
f9
c3
9f
04
a2
a2
b6
3c
40
06
7d
ab
57
ae
d0
3b
5a
f2
99
57
b5
fc
d7
a6
57
15
27
63
4d
df
57
54
17
81
71
79
5c
ab
0c
94
65
8d
9b
3e
b4
76
d5
4b
82
6c
37
02
90
a3
55
8c
0c
7b
33
bb
d4
b7
de
85
f9
40
f7
2b
21
54
d0
69
41
1d
96
eb
72
0b
24
6c
60
12
fb
df
b7
53
c3
1f
63
f1
cd
e9
1b
49
a8
e6
e5
a2
73
83
4b
b6
06
56
77
e2
0b
7f
bc
67
d2
7d
9d
7f
39
f6
66
c7
90
f7
72
ae
67
47
4c
7b
a4
53
38
a6
63
4f
5b
e3
a5
89
a6
31
a8
b2
34
85
5c
0e
71
9f
93
c6
20
00
9b
b9
9a
f9
f6
fb
ac
d3
6f
46
02
3c
b0
b6
28
74
53
58
12
69
78
52
c5
81
d4
0b
37
bf
77
e5
05
4f
8e
37
3e
c8
11
27
9b
17
0b
00
b8
5b
bf
5b
aa
ac
b6
27
19
a0
67
62
30
94
6d
f7
b6
ab
b5
0e
77
50
8d
5c
51
1d
b3
c5
be
44
cc
d1
8a
d0
0f
b8
69
1f
98
4c
a5
9e
65
a4
e2
14
08
ac
3f
d0
a5
d1
77
e1
ef
07
a7
8f
f2
f1
7f
52
98
13
45
56
90
b3
8a
ab
34
18
f0
79
33
cb
d5
ba
f6
5e
af
70
24
df
86
d5
4b
95
1d
20
3a
87
d1
88
5e
df
ef
c3
05
30
02
45
79
0e
fe
db
9d
50
f1
c5
49
11
1d
8f
0a
68
38
3f
59
ed
98
dc
35
6f
2d
00
4b
10
19
7a
74
95
63
4b
34
2b
b5
e0
8e
6d
b5
31
76
17
b2
21
61
6d
e6
9f
00
f5
44
c3
6c
25
9f
93
5e
13
7c
41
2d
40
55
af
36
7e
09
51
8d
5a
3a
c6
51
d6
a9
98
b2
60
1c
ef
40
35
62
b3
7e
08
e1
bc
17
8f
76
db
ce
11
8b
8b
3b
99
71
ce
9e
f1
56
a7
8f
56
f2
53
10
2c
25
49
1b
60
26
fd
c2
e8
f6
83
c1
f5
d5
57
d3
a0
70
3d
7f
53
d3
20
93
e9
0c
81
f7
e1
00
06
59
12
16
c0
8a
20
8b
fb
01
6c
bb
22
88
38
29
23
ca
ca
03
f0
96
f6
2f
ab
ff
64
f5
a5
97
d6
c2
ea
7f
ba
84
d9
b0
d1
fb
d2
eb
e9
b6
d5
e4
6f
d5
04
88
02
10
d5
55
b3
de
a0
af
3a
3c
50
6a
09
4b
78
b6
4e
0c
fd
20
57
fd
ab
06
a3
ec
ca
44
82
11
03
52
db
05
3d
0c
a0
14
ca
cb
9a
67
cc
6b
3a
a4
77
22
bf
08
b6
61
f3
c1
af
30
c3
18
24
bf
a0
ca
9b
66
d7
7b
88
a9
a2
af
96
ad
42
83
9c
73
bd
ee
24
90
eb
ed
75
1a
15
8d
75
00
ad
74
d8
6d
bb
c1
96
60
41
6a
23
01
5b
2a
65
68
7a
76
df
a6
ae
b9
6c
e9
5c
28
90
30
6a
fe
c9
a8
36
78
7a
7f
7f
33
b3
ac
41
04